const unsigned char model[] = {
  0x1c, 0x00, 0x00, 0x00, 0x54, 0x46, 0x4c, 0x33, 0x14, 0x00, 0x20, 0x00,
  0x1c, 0x00, 0x18, 0x00, 0x14, 0x00, 0x10, 0x00, 0x0c, 0x00, 0x00, 0x00,
  0x08, 0x00, 0x04, 0x00, 0x14, 0x00, 0x00, 0x00, 0x1c, 0x00, 0x00, 0x00,
  0x90, 0x00, 0x00, 0x00, 0xe8, 0x00, 0x00, 0x00, 0x0c, 0x06, 0x00, 0x00,
  0x1c, 0x06, 0x00, 0x00, 0x58, 0x0b, 0x00, 0x00, 0x03, 0x00, 0x00, 0x00,
  0x01, 0x00, 0x00, 0x00, 0x10, 0x00, 0x00, 0x00, 0x00, 0x00, 0x0a, 0x00,
  0x10, 0x00, 0x0c, 0x00, 0x08, 0x00, 0x04, 0x00, 0x0a, 0x00, 0x00, 0x00,
  0x0c, 0x00, 0x00, 0x00, 0x1c, 0x00, 0x00, 0x00, 0x3c, 0x00, 0x00, 0x00,
  0x0f, 0x00, 0x00, 0x00, 0x73, 0x65, 0x72, 0x76, 0x69, 0x6e, 0x67, 0x5f,
  0x64, 0x65, 0x66, 0x61, 0x75, 0x6c, 0x74, 0x00, 0x01, 0x00, 0x00, 0x00,
  0x04, 0x00, 0x00, 0x00, 0x98, 0xff, 0xff, 0xff, 0x09, 0x00, 0x00, 0x00,
  0x04, 0x00, 0x00, 0x00, 0x08, 0x00, 0x00, 0x00, 0x6f, 0x75, 0x74, 0x70,
  0x75, 0x74, 0x5f, 0x30, 0x00, 0x00, 0x00, 0x00, 0x01, 0x00, 0x00, 0x00,
  0x04, 0x00, 0x00, 0x00, 0xea, 0xf9, 0xff, 0xff, 0x04, 0x00, 0x00, 0x00,
  0x05, 0x00, 0x00, 0x00, 0x69, 0x6e, 0x70, 0x75, 0x74, 0x00, 0x00, 0x00,
  0x02, 0x00, 0x00, 0x00, 0x34, 0x00, 0x00, 0x00, 0x04, 0x00, 0x00, 0x00,
  0xdc, 0xff, 0xff, 0xff, 0x0c, 0x00, 0x00, 0x00, 0x04, 0x00, 0x00, 0x00,
  0x13, 0x00, 0x00, 0x00, 0x43, 0x4f, 0x4e, 0x56, 0x45, 0x52, 0x53, 0x49,
  0x4f, 0x4e, 0x5f, 0x4d, 0x45, 0x54, 0x41, 0x44, 0x41, 0x54, 0x41, 0x00,
  0x08, 0x00, 0x0c, 0x00, 0x08, 0x00, 0x04, 0x00, 0x08, 0x00, 0x00, 0x00,
  0x0b, 0x00, 0x00, 0x00, 0x04, 0x00, 0x00, 0x00, 0x13, 0x00, 0x00, 0x00,
  0x6d, 0x69, 0x6e, 0x5f, 0x72, 0x75, 0x6e, 0x74, 0x69, 0x6d, 0x65, 0x5f,
  0x76, 0x65, 0x72, 0x73, 0x69, 0x6f, 0x6e, 0x00, 0x0d, 0x00, 0x00, 0x00,
  0x20, 0x05, 0x00, 0x00, 0x18, 0x05, 0x00, 0x00, 0x08, 0x03, 0x00, 0x00,
  0x78, 0x01, 0x00, 0x00, 0xe8, 0x00, 0x00, 0x00, 0xc8, 0x00, 0x00, 0x00,
  0xb4, 0x00, 0x00, 0x00, 0xac, 0x00, 0x00, 0x00, 0xa4, 0x00, 0x00, 0x00,
  0x9c, 0x00, 0x00, 0x00, 0x94, 0x00, 0x00, 0x00, 0x74, 0x00, 0x00, 0x00,
  0x04, 0x00, 0x00, 0x00, 0x92, 0xfa, 0xff, 0xff, 0x04, 0x00, 0x00, 0x00,
  0x60, 0x00, 0x00, 0x00, 0x0c, 0x00, 0x00, 0x00, 0x08, 0x00, 0x0e, 0x00,
  0x08, 0x00, 0x04, 0x00, 0x08, 0x00, 0x00, 0x00, 0x10, 0x00, 0x00, 0x00,
  0x28, 0x00, 0x00, 0x00, 0x00, 0x00, 0x06, 0x00, 0x08, 0x00, 0x04, 0x00,
  0x06, 0x00, 0x00, 0x00, 0x04, 0x00, 0x00, 0x00, 0x01, 0x00, 0x00, 0x00,
  0xea, 0x03, 0x00, 0x00, 0x0c, 0x00, 0x18, 0x00, 0x14, 0x00, 0x10, 0x00,
  0x0c, 0x00, 0x04, 0x00, 0x0c, 0x00, 0x00, 0x00, 0x44, 0x4c, 0x42, 0xd2,
  0x4b, 0xee, 0x82, 0x28, 0x02, 0x00, 0x00, 0x00, 0x02, 0x00, 0x00, 0x00,
  0x04, 0x00, 0x00, 0x00, 0x06, 0x00, 0x00, 0x00, 0x32, 0x2e, 0x31, 0x38,
  0x2e, 0x30, 0x00, 0x00, 0xfe, 0xfa, 0xff, 0xff, 0x04, 0x00, 0x00, 0x00,
  0x10, 0x00, 0x00, 0x00, 0x31, 0x2e, 0x31, 0x31, 0x2e, 0x30, 0x00, 0x00,
  0x00, 0x00, 0x00, 0x00, 0x00, 0x00, 0x00, 0x00, 0x78, 0xf6, 0xff, 0xff,
  0x7c, 0xf6, 0xff, 0xff, 0x80, 0xf6, 0xff, 0xff, 0x84, 0xf6, 0xff, 0xff,
  0x2a, 0xfb, 0xff, 0xff, 0x04, 0x00, 0x00, 0x00, 0x04, 0x00, 0x00, 0x00,
  0x01, 0x00, 0x00, 0x00, 0x3a, 0xfb, 0xff, 0xff, 0x04, 0x00, 0x00, 0x00,
  0x10, 0x00, 0x00, 0x00, 0x62, 0x95, 0xca, 0x3d, 0x33, 0x75, 0x8b, 0x3c,
  0x94, 0x62, 0xf6, 0x3e, 0x4f, 0x8e, 0x1f, 0xbf, 0x56, 0xfb, 0xff, 0xff,
  0x04, 0x00, 0x00, 0x00, 0x80, 0x00, 0x00, 0x00, 0x68, 0x40, 0xed, 0xbe,
  0x8b, 0x67, 0xed, 0xbd, 0x06, 0xe4, 0x4c, 0x3d, 0xa4, 0xcd, 0x14, 0x3f,
  0x89, 0xcd, 0x48, 0xbe, 0xef, 0x77, 0xd9, 0xbd, 0xe6, 0xbd, 0x00, 0x3f,
  0xaf, 0xee, 0xba, 0x3d, 0x00, 0x00, 0x00, 0x00, 0x00, 0x00, 0x00, 0x00,
  0xb0, 0xeb, 0xda, 0xbc, 0xa6, 0x9c, 0x1b, 0x3f, 0x41, 0x6b, 0xfe, 0xbe,
  0x00, 0x00, 0x00, 0x00, 0x00, 0x00, 0x00, 0x00, 0xd7, 0x52, 0x35, 0x3e,
  0xc2, 0x1a, 0x53, 0xbf, 0x00, 0x00, 0x00, 0x00, 0x03, 0x64, 0xa3, 0x3c,
  0x87, 0x1d, 0x2d, 0xbf, 0xec, 0xdb, 0x5f, 0xbf, 0x00, 0x00, 0x00, 0x00,
  0x00, 0x00, 0x00, 0x00, 0xf3, 0xf6, 0x02, 0xbf, 0x26, 0xd2, 0xd3, 0x3e,
  0x00, 0x00, 0x00, 0x00, 0x00, 0x00, 0x00, 0x00, 0x00, 0x00, 0x00, 0x00,
  0x00, 0x00, 0x00, 0x00, 0xcf, 0xda, 0x23, 0x3f, 0x41, 0x30, 0x29, 0x3f,
  0x00, 0x00, 0x00, 0x00, 0xe2, 0xfb, 0xff, 0xff, 0x04, 0x00, 0x00, 0x00,
  0x80, 0x01, 0x00, 0x00, 0xc4, 0x0e, 0x9c, 0xbf, 0x65, 0xb0, 0xad, 0x3f,
  0xa8, 0x04, 0xf8, 0x3f, 0xbd, 0xaf, 0x20, 0xbd, 0xbf, 0xf2, 0xfe, 0x3d,
  0x10, 0xfd, 0xa1, 0xbd, 0x69, 0xe5, 0x51, 0xbf, 0x1b, 0x04, 0xa2, 0x3f,
  0x8f, 0x1f, 0x64, 0x3f, 0xff, 0x77, 0x06, 0xc0, 0x7e, 0xe4, 0x95, 0x3f,
  0x9d, 0x0f, 0x8d, 0x3f, 0x32, 0x88, 0xed, 0x3f, 0xc4, 0x43, 0xe9, 0xbd,
  0x05, 0xa7, 0x3d, 0x3e, 0xa9, 0xa4, 0xf6, 0x3f, 0x75, 0xbb, 0x97, 0x3e,
  0xf3, 0x24, 0x1b, 0xbf, 0x4e, 0x38, 0x88, 0x3f, 0xde, 0x5b, 0x61, 0x3f,
  0x8a, 0x05, 0xda, 0xbf, 0xc5, 0xf0, 0xee, 0x3f, 0x3e, 0xd7, 0x1e, 0x3e,
  0xa8, 0xc2, 0x57, 0xbf, 0x84, 0x6c, 0xd3, 0xbe, 0xd8, 0xc0, 0xe7, 0xbd,
  0xe0, 0x2d, 0xc6, 0xbc, 0xff, 0xf7, 0x38, 0xbe, 0x04, 0xd6, 0x8c, 0xbe,
  0x0e, 0xad, 0x18, 0x3e, 0x7f, 0x55, 0x39, 0xbe, 0x3e, 0xe2, 0x67, 0xbe,
  0xd8, 0x1f, 0x49, 0x3e, 0xbb, 0xa1, 0x35, 0xbf, 0x58, 0xc7, 0x3c, 0xbe,
  0xe8, 0x58, 0xcb, 0x3e, 0xe9, 0xcc, 0x67, 0xbf, 0xec, 0x53, 0x4f, 0x3f,
  0x38, 0xc3, 0x11, 0x40, 0x84, 0x71, 0xd6, 0x3d, 0xa3, 0x00, 0x96, 0xbe,
  0x46, 0x0a, 0x12, 0x3e, 0x34, 0xa9, 0xf1, 0x3d, 0x5f, 0x57, 0xd0, 0xbe,
  0xb8, 0xdb, 0xa9, 0xbe, 0x51, 0x8d, 0x01, 0x40, 0x25, 0xc4, 0xa1, 0x3d,
  0xb8, 0x64, 0x83, 0xbf, 0x59, 0xfe, 0x3e, 0x3f, 0xe6, 0xd9, 0x79, 0x3e,
  0xde, 0x71, 0xd4, 0x3f, 0xb1, 0x40, 0xac, 0xbe, 0xa0, 0xb1, 0x7c, 0x3d,
  0xad, 0x15, 0x9b, 0xbe, 0x44, 0x33, 0xa0, 0xbf, 0xfb, 0x3a, 0xb6, 0x3f,
  0xe3, 0x88, 0x85, 0x3f, 0xc9, 0xdd, 0x5e, 0xbf, 0x9f, 0xce, 0x97, 0x3f,
  0x98, 0x11, 0x08, 0x40, 0xd6, 0x95, 0x0c, 0x40, 0x14, 0xed, 0x02, 0x3f,
  0x11, 0x63, 0x68, 0x3f, 0x00, 0x28, 0xc7, 0xbc, 0xd4, 0x70, 0xc1, 0x3d,
  0xaf, 0x22, 0xb7, 0xbe, 0xe2, 0xf4, 0x4d, 0xbe, 0x6f, 0x1b, 0x48, 0xbe,
  0xc2, 0xdb, 0x20, 0x3e, 0xf6, 0x9c, 0x8a, 0xbf, 0xcc, 0xd8, 0x6d, 0x3f,
  0xdb, 0x1b, 0x22, 0x40, 0xd2, 0x8a, 0x0c, 0x40, 0xc3, 0xe2, 0x41, 0x3e,
  0xec, 0xc4, 0xd8, 0xbf, 0x8c, 0x25, 0xdb, 0x3d, 0xd7, 0xb2, 0x3f, 0xbe,
  0x36, 0xf9, 0x60, 0xbe, 0xba, 0xd9, 0x10, 0xbe, 0x9d, 0x01, 0xa7, 0xbe,
  0x6c, 0x1b, 0x86, 0x3d, 0xf8, 0x69, 0xd6, 0xbd, 0x45, 0x56, 0xc0, 0xbe,
  0x34, 0x73, 0xc8, 0xbd, 0x4c, 0x1e, 0xbb, 0xbe, 0x72, 0xee, 0x9e, 0xbe,
  0xeb, 0xd9, 0x82, 0x3e, 0x67, 0x89, 0xa7, 0x3f, 0x8b, 0xb8, 0x5a, 0xbf,
  0xab, 0xcf, 0x80, 0xbf, 0x75, 0xa9, 0x07, 0x40, 0x55, 0xd8, 0xc6, 0xbe,
  0x3d, 0x7b, 0xcc, 0xbf, 0xf5, 0xf0, 0x88, 0x3e, 0x1b, 0x94, 0xc7, 0xbe,
  0x0b, 0x24, 0xa5, 0xbe, 0x6e, 0xfd, 0xff, 0xff, 0x04, 0x00, 0x00, 0x00,
  0x00, 0x02, 0x00, 0x00, 0x42, 0xe8, 0x47, 0xc0, 0x79, 0x6e, 0x27, 0x3e,
  0x02, 0xdd, 0xc2, 0xbf, 0xf8, 0xa8, 0x3d, 0xc0, 0xd3, 0x14, 0x5e, 0x3f,
  0xbc, 0x65, 0x48, 0x3f, 0xf5, 0xe1, 0x17, 0x3f, 0x89, 0xf0, 0x75, 0x3f,
  0x58, 0x6b, 0xdd, 0xbd, 0x20, 0xf4, 0x0b, 0x3e, 0x90, 0xd4, 0x18, 0x3e,
  0x7f, 0xa1, 0x03, 0xbe, 0xad, 0x23, 0x4f, 0xc0, 0xb0, 0x2d, 0xa7, 0xbd,
  0xf4, 0x98, 0x2a, 0x3e, 0x42, 0x5a, 0x7e, 0x3f, 0xeb, 0x54, 0xbe, 0xbf,
  0xec, 0xc6, 0x91, 0x3e, 0x9c, 0xb4, 0x2e, 0xc0, 0xf2, 0x12, 0x55, 0xc0,
  0xa4, 0xee, 0xa3, 0xbd, 0x68, 0x61, 0xe4, 0x3d, 0x18, 0x7f, 0xcd, 0x3d,
  0xb4, 0xde, 0x57, 0xc0, 0x81, 0xa3, 0x83, 0x3f, 0x1c, 0xee, 0xb2, 0x3e,
  0xd0, 0x92, 0x45, 0xbd, 0xe2, 0x03, 0xb1, 0x3e, 0x9e, 0x0d, 0x99, 0xbe,
  0xaf, 0x83, 0x09, 0x40, 0xf2, 0x31, 0xb9, 0x3f, 0x27, 0xe9, 0xc7, 0xbe,
  0x91, 0xe9, 0x02, 0x3f, 0x90, 0x0c, 0x4e, 0xbe, 0x90, 0xf7, 0x60, 0x3f,
  0x1a, 0xd5, 0xb8, 0x3d, 0x05, 0x9a, 0x86, 0x3d, 0x0c, 0xc0, 0xd8, 0x3e,
  0xd1, 0x05, 0x94, 0x3f, 0xad, 0xee, 0x28, 0x3f, 0x14, 0x7d, 0x10, 0x3e,
  0x4a, 0x78, 0xb4, 0xbe, 0x56, 0x73, 0xa5, 0xbe, 0x4a, 0x90, 0xce, 0xbe,
  0x5f, 0x95, 0xf0, 0xbe, 0x34, 0xb9, 0x79, 0x3e, 0x86, 0xa0, 0x9f, 0x3e,
  0x38, 0xea, 0x93, 0x3e, 0x38, 0x59, 0x85, 0xbf, 0xa6, 0x6f, 0x87, 0x3e,
  0x69, 0xb6, 0x36, 0x3f, 0x4b, 0x29, 0x11, 0x3f, 0x55, 0x4b, 0xbe, 0xbd,
  0x28, 0x27, 0x47, 0xbd, 0x60, 0x17, 0xce, 0xbc, 0xf6, 0x39, 0x0c, 0xbf,
  0x33, 0x20, 0x2a, 0x3f, 0xd0, 0xd6, 0xeb, 0x3d, 0x86, 0x78, 0x0d, 0xbe,
  0xe0, 0x9f, 0x45, 0x3d, 0x75, 0xf7, 0xb4, 0xbe, 0x6f, 0x9d, 0x58, 0xbf,
  0xc8, 0x66, 0xe4, 0x3e, 0x0a, 0xab, 0x3d, 0xbe, 0xa7, 0x3e, 0x8a, 0x3f,
  0x39, 0xee, 0x4c, 0x3d, 0xc6, 0x40, 0x80, 0x3f, 0xf8, 0x5a, 0x02, 0x40,
  0x01, 0x89, 0x06, 0xc0, 0x81, 0x4d, 0x05, 0xc0, 0x7f, 0x8c, 0x6d, 0xbf,
  0xdc, 0x36, 0x01, 0xc0, 0xd6, 0x4d, 0xb2, 0x3e, 0xa0, 0x1e, 0x76, 0xbc,
  0xb3, 0xcc, 0x45, 0x3d, 0x59, 0x59, 0xa0, 0x3f, 0x6f, 0xb5, 0x96, 0x3f,
  0xb6, 0xe3, 0x81, 0x3e, 0xc0, 0x56, 0x0a, 0x3c, 0x0e, 0xb5, 0x0e, 0xc0,
  0x17, 0xe2, 0x18, 0xc0, 0xec, 0x45, 0x86, 0xbe, 0x72, 0x6a, 0xae, 0x3f,
  0x19, 0x96, 0x83, 0x3f, 0x9f, 0xae, 0x0b, 0xc0, 0x12, 0x1b, 0xa4, 0xbe,
  0x58, 0xe4, 0x88, 0x3e, 0xee, 0x2e, 0xb5, 0x3f, 0x5b, 0x79, 0x0a, 0xc0,
  0xe2, 0x17, 0xb1, 0xbe, 0x25, 0x06, 0xca, 0xbe, 0x48, 0x6a, 0xca, 0x3e,
  0xa0, 0xf5, 0xba, 0x3c, 0x39, 0x1a, 0xba, 0xbe, 0x29, 0x5f, 0xff, 0xbf,
  0xc4, 0xde, 0x9b, 0x3e, 0x6a, 0xd0, 0xc7, 0x3f, 0x05, 0x0a, 0x1e, 0x3e,
  0x79, 0xdc, 0x93, 0x3e, 0x89, 0x95, 0x1f, 0xbf, 0x53, 0xda, 0x64, 0x3f,
  0x36, 0xce, 0x42, 0x3e, 0xeb, 0x49, 0x94, 0xbf, 0x49, 0x74, 0xa5, 0xbe,
  0x2a, 0x68, 0x9d, 0x3e, 0xa8, 0x6f, 0x8d, 0x3e, 0x3b, 0x6c, 0x9a, 0xbe,
  0x9a, 0x6c, 0x39, 0xbf, 0xc2, 0x9f, 0x02, 0x40, 0x3c, 0x72, 0x54, 0x3e,
  0x0a, 0x74, 0xc6, 0x3e, 0x9b, 0x72, 0xfd, 0xbe, 0x49, 0xcb, 0x5b, 0x40,
  0x84, 0x9a, 0x1d, 0xbe, 0xc9, 0x23, 0xa9, 0x3e, 0x6a, 0x95, 0xec, 0x3f,
  0xec, 0xfa, 0xb5, 0x3f, 0x3b, 0x8d, 0xc3, 0xbe, 0xbc, 0x7e, 0x91, 0x3d,
  0x6f, 0x25, 0xf1, 0x3f, 0x75, 0x08, 0x97, 0xbf, 0x00, 0x36, 0x8a, 0x3b,
  0xbc, 0x0f, 0x4c, 0xbe, 0x30, 0xf5, 0xb3, 0x3d, 0xc8, 0x8f, 0xc9, 0x3d,
  0x26, 0x43, 0x77, 0xc0, 0x1e, 0xc5, 0xc5, 0xbf, 0x7c, 0x3f, 0xad, 0xbd,
  0xd8, 0xfa, 0xff, 0xff, 0xdc, 0xfa, 0xff, 0xff, 0x0f, 0x00, 0x00, 0x00,
  0x4d, 0x4c, 0x49, 0x52, 0x20, 0x43, 0x6f, 0x6e, 0x76, 0x65, 0x72, 0x74,
  0x65, 0x64, 0x2e, 0x00, 0x01, 0x00, 0x00, 0x00, 0x14, 0x00, 0x00, 0x00,
  0x00, 0x00, 0x0e, 0x00, 0x18, 0x00, 0x14, 0x00, 0x10, 0x00, 0x0c, 0x00,
  0x08, 0x00, 0x04, 0x00, 0x0e, 0x00, 0x00, 0x00, 0x14, 0x00, 0x00, 0x00,
  0x1c, 0x00, 0x00, 0x00, 0x24, 0x01, 0x00, 0x00, 0x28, 0x01, 0x00, 0x00,
  0x2c, 0x01, 0x00, 0x00, 0x04, 0x00, 0x00, 0x00, 0x6d, 0x61, 0x69, 0x6e,
  0x00, 0x00, 0x00, 0x00, 0x04, 0x00, 0x00, 0x00, 0xdc, 0x00, 0x00, 0x00,
  0x88, 0x00, 0x00, 0x00, 0x40, 0x00, 0x00, 0x00, 0x04, 0x00, 0x00, 0x00,
  0x92, 0xff, 0xff, 0xff, 0x1c, 0x00, 0x00, 0x00, 0x00, 0x00, 0x00, 0x09,
  0x1c, 0x00, 0x00, 0x00, 0x20, 0x00, 0x00, 0x00, 0x02, 0x00, 0x00, 0x00,
  0x00, 0x00, 0x06, 0x00, 0x08, 0x00, 0x04, 0x00, 0x06, 0x00, 0x00, 0x00,
  0x00, 0x00, 0x80, 0x3f, 0x01, 0x00, 0x00, 0x00, 0x09, 0x00, 0x00, 0x00,
  0x01, 0x00, 0x00, 0x00, 0x08, 0x00, 0x00, 0x00, 0xca, 0xff, 0xff, 0xff,
  0x14, 0x00, 0x00, 0x00, 0x00, 0x00, 0x00, 0x08, 0x10, 0x00, 0x00, 0x00,
  0x14, 0x00, 0x00, 0x00, 0x01, 0x00, 0x00, 0x00, 0x94, 0xfb, 0xff, 0xff,
  0x01, 0x00, 0x00, 0x00, 0x08, 0x00, 0x00, 0x00, 0x03, 0x00, 0x00, 0x00,
  0x07, 0x00, 0x00, 0x00, 0x01, 0x00, 0x00, 0x00, 0x04, 0x00, 0x00, 0x00,
  0x00, 0x00, 0x0e, 0x00, 0x1a, 0x00, 0x14, 0x00, 0x10, 0x00, 0x0c, 0x00,
  0x0b, 0x00, 0x04, 0x00, 0x0e, 0x00, 0x00, 0x00, 0x1c, 0x00, 0x00, 0x00,
  0x00, 0x00, 0x00, 0x08, 0x1c, 0x00, 0x00, 0x00, 0x20, 0x00, 0x00, 0x00,
  0x01, 0x00, 0x00, 0x00, 0x00, 0x00, 0x06, 0x00, 0x08, 0x00, 0x07, 0x00,
  0x06, 0x00, 0x00, 0x00, 0x00, 0x00, 0x00, 0x01, 0x01, 0x00, 0x00, 0x00,
  0x07, 0x00, 0x00, 0x00, 0x03, 0x00, 0x00, 0x00, 0x06, 0x00, 0x00, 0x00,
  0x02, 0x00, 0x00, 0x00, 0x03, 0x00, 0x00, 0x00, 0x00, 0x00, 0x0e, 0x00,
  0x14, 0x00, 0x00, 0x00, 0x10, 0x00, 0x0c, 0x00, 0x0b, 0x00, 0x04, 0x00,
  0x0e, 0x00, 0x00, 0x00, 0x10, 0x00, 0x00, 0x00, 0x00, 0x00, 0x00, 0x1b,
  0x0c, 0x00, 0x00, 0x00, 0x10, 0x00, 0x00, 0x00, 0x24, 0xfc, 0xff, 0xff,
  0x01, 0x00, 0x00, 0x00, 0x06, 0x00, 0x00, 0x00, 0x02, 0x00, 0x00, 0x00,
  0x00, 0x00, 0x00, 0x00, 0x05, 0x00, 0x00, 0x00, 0x01, 0x00, 0x00, 0x00,
  0x09, 0x00, 0x00, 0x00, 0x01, 0x00, 0x00, 0x00, 0x00, 0x00, 0x00, 0x00,
  0x0a, 0x00, 0x00, 0x00, 0x84, 0x03, 0x00, 0x00, 0x2c, 0x03, 0x00, 0x00,
  0xd4, 0x02, 0x00, 0x00, 0x98, 0x02, 0x00, 0x00, 0x5c, 0x02, 0x00, 0x00,
  0xf4, 0x01, 0x00, 0x00, 0x74, 0x01, 0x00, 0x00, 0xe0, 0x00, 0x00, 0x00,
  0x60, 0x00, 0x00, 0x00, 0x04, 0x00, 0x00, 0x00, 0xba, 0xfc, 0xff, 0xff,
  0x00, 0x00, 0x00, 0x01, 0x14, 0x00, 0x00, 0x00, 0x1c, 0x00, 0x00, 0x00,
  0x1c, 0x00, 0x00, 0x00, 0x0a, 0x00, 0x00, 0x00, 0x34, 0x00, 0x00, 0x00,
  0x02, 0x00, 0x00, 0x00, 0xff, 0xff, 0xff, 0xff, 0x04, 0x00, 0x00, 0x00,
  0xa0, 0xfc, 0xff, 0xff, 0x1b, 0x00, 0x00, 0x00, 0x53, 0x74, 0x61, 0x74,
  0x65, 0x66, 0x75, 0x6c, 0x50, 0x61, 0x72, 0x74, 0x69, 0x74, 0x69, 0x6f,
  0x6e, 0x65, 0x64, 0x43, 0x61, 0x6c, 0x6c, 0x5f, 0x31, 0x3a, 0x30, 0x00,
  0x02, 0x00, 0x00, 0x00, 0x01, 0x00, 0x00, 0x00, 0x04, 0x00, 0x00, 0x00,
  0x12, 0xfd, 0xff, 0xff, 0x00, 0x00, 0x00, 0x01, 0x14, 0x00, 0x00, 0x00,
  0x1c, 0x00, 0x00, 0x00, 0x1c, 0x00, 0x00, 0x00, 0x09, 0x00, 0x00, 0x00,
  0x58, 0x00, 0x00, 0x00, 0x02, 0x00, 0x00, 0x00, 0xff, 0xff, 0xff, 0xff,
  0x04, 0x00, 0x00, 0x00, 0xf8, 0xfc, 0xff, 0xff, 0x3c, 0x00, 0x00, 0x00,
  0x73, 0x65, 0x71, 0x75, 0x65, 0x6e, 0x74, 0x69, 0x61, 0x6c, 0x5f, 0x31,
  0x2f, 0x64, 0x65, 0x6e, 0x73, 0x65, 0x5f, 0x31, 0x5f, 0x32, 0x2f, 0x4d,
  0x61, 0x74, 0x4d, 0x75, 0x6c, 0x3b, 0x73, 0x65, 0x71, 0x75, 0x65, 0x6e,
  0x74, 0x69, 0x61, 0x6c, 0x5f, 0x31, 0x2f, 0x64, 0x65, 0x6e, 0x73, 0x65,
  0x5f, 0x31, 0x5f, 0x32, 0x2f, 0x42, 0x69, 0x61, 0x73, 0x41, 0x64, 0x64,
  0x00, 0x00, 0x00, 0x00, 0x02, 0x00, 0x00, 0x00, 0x01, 0x00, 0x00, 0x00,
  0x04, 0x00, 0x00, 0x00, 0x8e, 0xfd, 0xff, 0xff, 0x00, 0x00, 0x00, 0x01,
  0x14, 0x00, 0x00, 0x00, 0x1c, 0x00, 0x00, 0x00, 0x1c, 0x00, 0x00, 0x00,
  0x08, 0x00, 0x00, 0x00, 0x6c, 0x00, 0x00, 0x00, 0x02, 0x00, 0x00, 0x00,
  0xff, 0xff, 0xff, 0xff, 0x20, 0x00, 0x00, 0x00, 0x74, 0xfd, 0xff, 0xff,
  0x52, 0x00, 0x00, 0x00, 0x73, 0x65, 0x71, 0x75, 0x65, 0x6e, 0x74, 0x69,
  0x61, 0x6c, 0x5f, 0x31, 0x2f, 0x64, 0x65, 0x6e, 0x73, 0x65, 0x5f, 0x31,
  0x2f, 0x4d, 0x61, 0x74, 0x4d, 0x75, 0x6c, 0x3b, 0x73, 0x65, 0x71, 0x75,
  0x65, 0x6e, 0x74, 0x69, 0x61, 0x6c, 0x5f, 0x31, 0x2f, 0x64, 0x65, 0x6e,
  0x73, 0x65, 0x5f, 0x31, 0x2f, 0x52, 0x65, 0x6c, 0x75, 0x3b, 0x73, 0x65,
  0x71, 0x75, 0x65, 0x6e, 0x74, 0x69, 0x61, 0x6c, 0x5f, 0x31, 0x2f, 0x64,
  0x65, 0x6e, 0x73, 0x65, 0x5f, 0x31, 0x2f, 0x42, 0x69, 0x61, 0x73, 0x41,
  0x64, 0x64, 0x00, 0x00, 0x02, 0x00, 0x00, 0x00, 0x01, 0x00, 0x00, 0x00,
  0x20, 0x00, 0x00, 0x00, 0x1e, 0xfe, 0xff, 0xff, 0x00, 0x00, 0x00, 0x01,
  0x14, 0x00, 0x00, 0x00, 0x1c, 0x00, 0x00, 0x00, 0x1c, 0x00, 0x00, 0x00,
  0x07, 0x00, 0x00, 0x00, 0x40, 0x00, 0x00, 0x00, 0x02, 0x00, 0x00, 0x00,
  0xff, 0xff, 0xff, 0xff, 0x03, 0x00, 0x00, 0x00, 0x04, 0xfe, 0xff, 0xff,
  0x27, 0x00, 0x00, 0x00, 0x73, 0x65, 0x71, 0x75, 0x65, 0x6e, 0x74, 0x69,
  0x61, 0x6c, 0x5f, 0x31, 0x2f, 0x67, 0x6c, 0x6f, 0x62, 0x61, 0x6c, 0x5f,
  0x6d, 0x61, 0x78, 0x5f, 0x70, 0x6f, 0x6f, 0x6c, 0x69, 0x6e, 0x67, 0x31,
  0x64, 0x5f, 0x31, 0x2f, 0x4d, 0x61, 0x78, 0x00, 0x02, 0x00, 0x00, 0x00,
  0x01, 0x00, 0x00, 0x00, 0x03, 0x00, 0x00, 0x00, 0x00, 0x00, 0x16, 0x00,
  0x1c, 0x00, 0x18, 0x00, 0x17, 0x00, 0x10, 0x00, 0x0c, 0x00, 0x08, 0x00,
  0x00, 0x00, 0x00, 0x00, 0x00, 0x00, 0x07, 0x00, 0x16, 0x00, 0x00, 0x00,
  0x00, 0x00, 0x00, 0x01, 0x14, 0x00, 0x00, 0x00, 0x14, 0x00, 0x00, 0x00,
  0x06, 0x00, 0x00, 0x00, 0x00, 0x00, 0x00, 0x02, 0x48, 0x00, 0x00, 0x00,
  0x74, 0xfe, 0xff, 0xff, 0x39, 0x00, 0x00, 0x00, 0x73, 0x65, 0x71, 0x75,
  0x65, 0x6e, 0x74, 0x69, 0x61, 0x6c, 0x5f, 0x31, 0x2f, 0x67, 0x6c, 0x6f,
  0x62, 0x61, 0x6c, 0x5f, 0x6d, 0x61, 0x78, 0x5f, 0x70, 0x6f, 0x6f, 0x6c,
  0x69, 0x6e, 0x67, 0x31, 0x64, 0x5f, 0x31, 0x2f, 0x4d, 0x61, 0x78, 0x2f,
  0x72, 0x65, 0x64, 0x75, 0x63, 0x74, 0x69, 0x6f, 0x6e, 0x5f, 0x69, 0x6e,
  0x64, 0x69, 0x63, 0x65, 0x73, 0x00, 0x00, 0x00, 0x00, 0x00, 0x00, 0x00,
  0x52, 0xff, 0xff, 0xff, 0x00, 0x00, 0x00, 0x01, 0x10, 0x00, 0x00, 0x00,
  0x10, 0x00, 0x00, 0x00, 0x05, 0x00, 0x00, 0x00, 0x1c, 0x00, 0x00, 0x00,
  0xd4, 0xfe, 0xff, 0xff, 0x0f, 0x00, 0x00, 0x00, 0x61, 0x72, 0x69, 0x74,
  0x68, 0x2e, 0x63, 0x6f, 0x6e, 0x73, 0x74, 0x61, 0x6e, 0x74, 0x33, 0x00,
  0x01, 0x00, 0x00, 0x00, 0x04, 0x00, 0x00, 0x00, 0x8a, 0xff, 0xff, 0xff,
  0x00, 0x00, 0x00, 0x01, 0x10, 0x00, 0x00, 0x00, 0x10, 0x00, 0x00, 0x00,
  0x04, 0x00, 0x00, 0x00, 0x1c, 0x00, 0x00, 0x00, 0x0c, 0xff, 0xff, 0xff,
  0x0f, 0x00, 0x00, 0x00, 0x61, 0x72, 0x69, 0x74, 0x68, 0x2e, 0x63, 0x6f,
  0x6e, 0x73, 0x74, 0x61, 0x6e, 0x74, 0x32, 0x00, 0x01, 0x00, 0x00, 0x00,
  0x20, 0x00, 0x00, 0x00, 0xc2, 0xff, 0xff, 0xff, 0x00, 0x00, 0x00, 0x01,
  0x10, 0x00, 0x00, 0x00, 0x10, 0x00, 0x00, 0x00, 0x03, 0x00, 0x00, 0x00,
  0x1c, 0x00, 0x00, 0x00, 0x44, 0xff, 0xff, 0xff, 0x0f, 0x00, 0x00, 0x00,
  0x61, 0x72, 0x69, 0x74, 0x68, 0x2e, 0x63, 0x6f, 0x6e, 0x73, 0x74, 0x61,
  0x6e, 0x74, 0x31, 0x00, 0x02, 0x00, 0x00, 0x00, 0x20, 0x00, 0x00, 0x00,
  0x03, 0x00, 0x00, 0x00, 0x00, 0x00, 0x16, 0x00, 0x18, 0x00, 0x14, 0x00,
  0x00, 0x00, 0x10, 0x00, 0x0c, 0x00, 0x08, 0x00, 0x00, 0x00, 0x00, 0x00,
  0x00, 0x00, 0x07, 0x00, 0x16, 0x00, 0x00, 0x00, 0x00, 0x00, 0x00, 0x01,
  0x10, 0x00, 0x00, 0x00, 0x10, 0x00, 0x00, 0x00, 0x02, 0x00, 0x00, 0x00,
  0x1c, 0x00, 0x00, 0x00, 0x98, 0xff, 0xff, 0xff, 0x0e, 0x00, 0x00, 0x00,
  0x61, 0x72, 0x69, 0x74, 0x68, 0x2e, 0x63, 0x6f, 0x6e, 0x73, 0x74, 0x61,
  0x6e, 0x74, 0x00, 0x00, 0x02, 0x00, 0x00, 0x00, 0x04, 0x00, 0x00, 0x00,
  0x20, 0x00, 0x00, 0x00, 0x00, 0x00, 0x16, 0x00, 0x1c, 0x00, 0x18, 0x00,
  0x00, 0x00, 0x14, 0x00, 0x10, 0x00, 0x0c, 0x00, 0x00, 0x00, 0x00, 0x00,
  0x08, 0x00, 0x07, 0x00, 0x16, 0x00, 0x00, 0x00, 0x00, 0x00, 0x00, 0x01,
  0x14, 0x00, 0x00, 0x00, 0x24, 0x00, 0x00, 0x00, 0x24, 0x00, 0x00, 0x00,
  0x01, 0x00, 0x00, 0x00, 0x38, 0x00, 0x00, 0x00, 0x03, 0x00, 0x00, 0x00,
  0xff, 0xff, 0xff, 0xff, 0x32, 0x00, 0x00, 0x00, 0x03, 0x00, 0x00, 0x00,
  0x04, 0x00, 0x04, 0x00, 0x04, 0x00, 0x00, 0x00, 0x17, 0x00, 0x00, 0x00,
  0x73, 0x65, 0x72, 0x76, 0x69, 0x6e, 0x67, 0x5f, 0x64, 0x65, 0x66, 0x61,
  0x75, 0x6c, 0x74, 0x5f, 0x69, 0x6e, 0x70, 0x75, 0x74, 0x3a, 0x30, 0x00,
  0x03, 0x00, 0x00, 0x00, 0x01, 0x00, 0x00, 0x00, 0x32, 0x00, 0x00, 0x00,
  0x03, 0x00, 0x00, 0x00, 0x03, 0x00, 0x00, 0x00, 0x30, 0x00, 0x00, 0x00,
  0x14, 0x00, 0x00, 0x00, 0x04, 0x00, 0x00, 0x00, 0xe8, 0xff, 0xff, 0xff,
  0x19, 0x00, 0x00, 0x00, 0x00, 0x00, 0x00, 0x19, 0xf4, 0xff, 0xff, 0xff,
  0x09, 0x00, 0x00, 0x00, 0x00, 0x00, 0x00, 0x09, 0x0c, 0x00, 0x0c, 0x00,
  0x0b, 0x00, 0x00, 0x00, 0x00, 0x00, 0x04, 0x00, 0x0c, 0x00, 0x00, 0x00,
  0x52, 0x00, 0x00, 0x00, 0x00, 0x00, 0x00, 0x52
};
